{"vocab": {"\n": 0, " ": 1, "!": 2, "\"": 3, "#": 4, "$": 5, "%": 6, "&": 7, "'": 8, "(": 9, ")": 10, "*": 11, "+": 12, ",": 13, "-": 14, ".": 15, "/": 16, "0": 17, "1": 18, "2": 19, "3": 20, "4": 21, "5": 22, "6": 23, "7": 24, "8": 25, "9": 26, ":": 27, ";": 28, "?": 29, "A": 30, "B": 31, "C": 32, "D": 33, "E": 34, "F": 35, "G": 36, "H": 37, "I": 38, "J": 39, "K": 40, "L": 41, "M": 42, "N": 43, "O": 44, "P": 45, "Q": 46, "R": 47, "S": 48, "T": 49, "U": 50, "V": 51, "W": 52, "X": 53, "Y": 54, "Z": 55, "[": 56, "]": 57, "a": 58, "b": 59, "c": 60, "d": 61, "e": 62, "f": 63, "g": 64, "h": 65, "i": 66, "j": 67, "k": 68, "l": 69, "m": 70, "n": 71, "o": 72, "p": 73, "q": 74, "r": 75, "s": 76, "t": 77, "u": 78, "v": 79, "w": 80, "x": 81, "y": 82, "z": 83, "¡": 84, "«": 85, "»": 86, "¿": 87, "Á": 88, "É": 89, "Í": 90, "Ñ": 91, "Ó": 92, "Ú": 93, "à": 94, "á": 95, "é": 96, "í": 97, "ï": 98, "ñ": 99, "ó": 100, "ù": 101, "ú": 102, "ü": 103, "—": 104, "‘": 105, "’": 106, "“": 107, "”": 108, "•": 109, "™": 110, "﻿": 111, "e ": 112, "th": 113, "s ": 114, "t ": 115, "ou": 116, ", ": 117, "d ": 118, "er": 119, "in": 120, "an": 121, " th": 122, "en": 123, ":\n": 124, "or": 125, "ar": 126, "y ": 127, "\n\n": 128, "on": 129, "ll": 130, "o ": 131, "you": 132, "ha": 133, "es": 134, ".\n\n": 135, ",\n": 136, "r ": 137, "hi": 138, "US": 139, " the ": 140, "US:\n": 141, "om": 142, "no": 143, "ti": 144, "IUS:\n": 145, "of": 146, "us": 147, "and ": 148, "ll ": 149, "re": 150, "I ": 151, "to ": 152, "ing": 153, " m": 154, "wi": 155, "he ": 156, " s": 157, "at": 158, "ve ": 159, "at ": 160, "the ": 161, "he": 162, "le": 163, "for": 164, "ow": 165, "st ": 166, "li": 167, " a": 168, "be": 169, "is ": 170, "ch": 171, "ir": 172, "di": 173, " w": 174, ". ": 175, "oo": 176, "se": 177, "EN": 178, "it": 179, "er ": 180, "\nT": 181, "the": 182, "es ": 183, " you": 184, "st": 185, "him": 186, "; ": 187, "ri": 188, "us ": 189, " the": 190, "gh": 191, "ed ": 192, "ra": 193, "ol": 194, "'s ": 195, ": ": 196, "ci": 197, "our ": 198, "e, ": 199, "not ": 200, "de": 201, "ma": 202, "la": 203, "her": 204, "hat ": 205, ".\n\nM": 206, "with": 207, "bu": 208, "\nW": 209, "oul": 210, "in ": 211, "al": 212, "s, ": 213, "pe": 214, "you ": 215, "it ": 216, "com": 217, "ke ": 218, "to": 219, "nd ": 220, "IA": 221, "IA:\n": 222, "are ": 223, "an ": 224, "?\n\n": 225, "have ": 226, "of ": 227, "\nA": 228, "ir ": 229, "AR": 230, "his ": 231, "that ": 232, "ther": 233, "be ": 234, "as ": 235, "fi": 236, "ed": 237, "bl": 238, "irst ": 239, "pr": 240, "am": 241, "el": 242, "en ": 243, "Mar": 244, "ver": 245, "ing ": 246, "con": 247, "now": 248, "Marci": 249, "ood ": 250, "su": 251, "ould ": 252, "se ": 253, "a ": 254, "ENEN": 255, "ENENIUS:\n": 256, "IN": 257, "INIUS:\n": 258, "sh": 259, "tion": 260, "First ": 261, "ce": 262, "y, ": 263, "wor": 264, "tr": 265, ",\nT": 266, "your ": 267, "or ": 268, "my ": 269, "ARC": 270, "ac": 271, "e\n": 272, "ent": 273, "ARCIUS:\n": 274, ".\n\nV": 275, "ur": 276, ", w": 277, "th ": 278, "CO": 279, "good ": 280, ",\nW": 281, "up": 282, "OL": 283, "hear": 284, "un": 285, "ough": 286, ",\nA": 287, "po": 288, "ne": 289, "ter": 290, ".\n\nMENENIUS:\n": 291, "s\n": 292, "me ": 293, "n ": 294, "!\n\n": 295, "ad": 296, "--": 297, "know": 298, "but ": 299, "our": 300, "and": 301, "sha": 302, "Rom": 303, "il": 304, "zen": 305, "ce ": 306, "ell": 307, "mo": 308, "will ": 309, "ta": 310, "iti": 311, "f ": 312, "ere ": 313, "one ": 314, "et ": 315, ", and ": 316, " your ": 317, " a ": 318, "'d ": 319, "on ": 320, "is": 321, "t, ": 322, "k ": 323, "ch ": 324, ".\n\nMARCIUS:\n": 325, "Citi": 326, "Citizen": 327, "Citizen:\n": 328, ".\n\nFirst ": 329, "oun": 330, "go": 331, "Marcius": 332, "sen": 333, "em": 334, "ear": 335, "they ": 336, "for ": 337, "him ": 338, "ap": 339, "here ": 340, "'ll ": 341, "ga": 342, ".\n\nS": 343, "sa": 344, "est ": 345, "do ": 346, "! ": 347, " my ": 348, "COM": 349, "COMINIUS:\n": 350, "TUS:\n": 351, "op": 352, "wa": 353, "wh": 354, "sel": 355, "here": 356, "lo": 357, "ck": 358, "OLU": 359, "OLUM": 360, "OLUMN": 361, "OLUMNIA:\n": 362, "um": 363, "ts ": 364, "BR": 365, "BRU": 366, "BRUTUS:\n": 367, ".\n": 368, "le ": 369, ";\n": 370, "their ": 371, "do": 372, "ly ": 373, "fa": 374, "war": 375, "hat": 376, "er:\n": 377, "ak": 378, "You": 379, "mor": 380, "m ": 381, "' the ": 382, "ble ": 383, "tt": 384, "rom": 385, " their ": 386, "we ": 387, "fe": 388, "ess ": 389, "gi": 390, "with ": 391, "lea": 392, "Com": 393, "shall ": 394, ",\nAnd ": 395, "ther ": 396, "to the ": 397, "ul": 398, "ds ": 399, "gain": 400, "ow ": 401, "ell ": 402, "\nThe ": 403, "ca": 404, " you ": 405, "bo": 406, "'t": 407, "par": 408, "; and ": 409, "d\n": 410, " that ": 411, "ust ": 412, "ve": 413, "dis": 414, "?\n\nM": 415, "ds": 416, "Cor": 417, "IC": 418, "ICINIUS:\n": 419, "Marcius ": 420, "d, ": 421, "per": 422, "si": 423, "no ": 424, "hon": 425, "ves ": 426, "t\n": 427, "\nTo ": 428, "out ": 429, "\nAnd ": 430, "gre": 431, "ang": 432, ".\n\nCOMINIUS:\n": 433, "Cori": 434, "IR": 435, "IRG": 436, "IRGI": 437, "IRGIL": 438, "IRGILIA:\n": 439, "pro": 440, "if": 441, "es, ": 442, " this ": 443, "ten": 444, "was ": 445, "de ": 446, "The ": 447, "ong": 448, "sir": 449, "me": 450, ".\n\nBRUTUS:\n": 451, "coun": 452, "ink": 453, "? ": 454, "from": 455, "ut ": 456, "as": 457, "o, ": 458, "fidi": 459, ".\n\nSICINIUS:\n": 460, "ed, ": 461, "y\n": 462, "very ": 463, "vi": 464, "can": 465, "Of": 466, "der": 467, "make ": 468, "like ": 469, "ome ": 470, "est": 471, "fo": 472, "Th": 473, "He ": 474, "ese ": 475, "ufidi": 476, ".\n\nVIRGILIA:\n": 477, ".\n\nL": 478, "ART": 479, "ARTIUS:\n": 480, "ai": 481, "peop": 482, "ct": 483, "cond ": 484, "us, ": 485, "come ": 486, "all": 487, "por": 488, "did ": 489, "other": 490, "s and ": 491, "hey ": 492, "fri": 493, "ans": 494, "ru": 495, "et": 496, "bear": 497, "dr": 498, "I'll ": 499, "'d": 500, "ator": 501, "own": 502, "pla": 503, "hich": 504, "of the ": 505, "Aufidi": 506, ".\n\nLARTIUS:\n": 507, "one": 508, "econd ": 509, "would ": 510, "ev": 511, "gainst ": 512, "hich ": 513, "p ": 514, "must ": 515, "re ": 516, "thy ": 517, "had ": 518, "s,\n": 519, "ity": 520, "gra": 521, "da": 522, "\nI": 523, ". W": 524, "y the ": 525, "'T": 526, "qu": 527, "gen": 528, " man": 529, "br": 530, "ght": 531, "ee": 532, "\nTh": 533, "VOLUMNIA:\n": 534, "AL": 535, "ALE": 536, "ALER": 537, "ALERIA:\n": 538, ".\n\nA": 539, ".\n\nFirst Citizen:\n": 540, "ght ": 541, "this ": 542, "comm": 543, "ly": 544, "hel": 545, "e's ": 546, "\nWi": 547, "pra": 548, " they ": 549, "d to ": 550, "arm": 551, "ine ": 552, "most ": 553, "car": 554, "Ha": 555, "For": 556, "ant": 557, "ut": 558, "bell": 559, "ini": 560, "\nAs ": 561, "oldi": 562, "eral": 563, "I am": 564, "thou": 565, "in the ": 566, "hom": 567, "'ti": 568, "'tis ": 569, "tru": 570, "ess": 571, "I th": 572, "ll:\n": 573, "You ": 574, "pri": 575, "more ": 576, "gu": 577, " we ": 578, "af": 579, "ge": 580, "give ": 581, "pa": 582, "prou": 583, "frien": 584, "ake ": 585, " all": 586, "ber": 587, "ant ": 588, "hall ": 589, "sc": 590, ",\nThat ": 591, "pow": 592, "enator": 593, "oli": 594, ".\n\nVOLUMNIA:\n": 595, "ound ": 596, ".\n\nVALERIA:\n": 597, "COR": 598, "CORI": 599, "CORIOL": 600, "CORIOLA": 601, "CORIOLAN": 602, "peak": 603, "all ": 604, "people": 605, "own ": 606, "for the ": 607, " what ": 608, "o' the ": 609, "were ": 610, "atter": 611, "str": 612, "ves": 613, "you m": 614, "them": 615, "ose ": 616, "hen": 617, "ous ": 618, "foll": 619, "I will ": 620, "dy": 621, "e,\n": 622, "' ": 623, "general": 624, "ind": 625, "ho": 626, "gr": 627, "not": 628, "so ": 629, ".\n\nFirst S": 630, "enator:\n": 631, "O, ": 632, "honour": 633, "mad": 634, "UF": 635, "UFI": 636, "UFID": 637, "UFIDIUS:\n": 638, "Corioli": 639, "tw": 640, "CORIOLANUS:\n": 641, "First Citizen:\n": 642, "Be": 643, "know ": 644, "Cai": 645, "wer": 646, ": the ": 647, "ven": 648, ".\n\nSecond ": 649, "has ": 650, "well": 651, "repor": 652, "; w": 653, "If ": 654, "go ": 655, "ur ": 656, "ve\n": 657, "rea": 658, "your": 659, " them": 660, " as ": 661, ", sir": 662, "ing the ": 663, "see ": 664, "ook": 665, "cr": 666, "In": 667, "then": 668, "use ": 669, "of your ": 670, "ank": 671, "ark": 672, "Rome ": 673, "ex": 674, "But ": 675, "great ": 676, "noble ": 677, "hor": 678, "should ": 679, "ble": 680, "end ": 681, "upon ": 682, "Vol": 683, "ought ": 684, "Tit": 685, "ough ": 686, "'Tis ": 687, "son": 688, "man": 689, "madam": 690, "fore ": 691, "than ": 692, "Caius ": 693, "We ": 694, "let ": 695, "On": 696, "ood": 697, ".\nW": 698, "fl": 699, "mi": 700, "y th": 701, "that": 702, "der ": 703, "ous": 704, "plea": 705, "ho ": 706, "men": 707, "\nWith ": 708, "Our ": 709, "They ": 710, "Your ": 711, "th, ": 712, "tri": 713, "ever": 714, "and\n": 715, "you s": 716, "pre": 717, "litt": 718, "time ": 719, "tion ": 720, "answer": 721, "ind ": 722, "\nThat ": 723, "by the ": 724, ",--": 725, ", my ": 726, "upon": 727, "fic": 728, " me": 729, "ea": 730, "s of ": 731, "ba": 732, "hat's ": 733, "nor ": 734, ",\nTh": 735, "des": 736, "are": 737, "lik": 738, "ded": 739, "old ": 740, "va": 741, "new": 742, "Volsc": 743, "I am ": 744, "arti": 745, "shi": 746, " mo": 747, "ent ": 748, "self": 749, ",\nWe ": 750, "My ": 751, "than": 752, "oldier:\n": 753, "woun": 754, "y f": 755, " me ": 756, "Let ": 757, "pat": 758, "bun": 759, "ff": 760, " them ": 761, "gods ": 762, "hun": 763, "Con": 764, "countr": 765, "could ": 766, "hath ": 767, "can ": 768, "What ": 769, "he is ": 770, "co": 771, "cus": 772, "Cap": 773, "Capit": 774, "Capitol": 775, "Come, ": 776, " al": 777, "ore ": 778, "by ": 779, "ers": 780, "will": 781, "love ": 782, ". I ": 783, "yet ": 784, "mem": 785, "ver ": 786, "?\n\nMENENIUS:\n": 787, "cam": 788, " that": 789, "ey": 790, "No": 791, "blood": 792, "bra": 793, "not\n": 794, "I do ": 795, "thou ": 796, "s:\n": 797, "her ": 798, "uch": 799, "swor": 800, "out": 801, "essen": 802, "esseng": 803, "essenger:\n": 804, "wish": 805, "Comini": 806, "Larti": 807, "them ": 808, "sp": 809, "shall": 810, ".\n\nAUFIDIUS:\n": 811, "dou": 812, "deed, ": 813, "!\n\nVOLUMNIA:\n": 814, "How ": 815, "Coriol": 816, "Coriolan": 817, "ved ": 818, "All:\n": 819, "done": 820, "cian": 821, "dear": 822, "ge ": 823, "read": 824, "?\n\nFirst Citizen:\n": 825, "Na": 826, "say ": 827, "to be ": 828, "he\n": 829, "a\n": 830, "matter": 831, ", I ": 832, "bus": 833, "what ": 834, "tell ": 835, "ven ": 836, "gainst the ": 837, "Roman": 838, "ment": 839, ",\nThe ": 840, "it, ": 841, ": s": 842, "es\n": 843, "al ": 844, "you have ": 845, "little ": 846, " all the ": 847, "member": 848, "with the ": 849, "fec": 850, "ith": 851, "cei": 852, ", the ": 853, "s, and ": 854, "inc": 855, "cause ": 856, "say": 857, "s the ": 858, ", that ": 859, "how": 860, "ef": 861, "ro": 862, "nor": 863, "off": 864, " these ": 865, "eep": 866, "pres": 867, "i' the ": 868, "fac": 869, "?\n\nMessenger:\n": 870, "s to ": 871, "Titus ": 872, "Titus Larti": 873, "Senator:\n": 874, "follow": 875, "ship": 876, "forth": 877, "tter ": 878, "shall be ": 879, "e, and ": 880, "Aufidius": 881, "I have ": 882, "Rome": 883, "before ": 884, "how ": 885, "tur": 886, "lor": 887, "In ": 888, "here is ": 889, "heart": 890, ".\n\nFirst Soldier:\n": 891, "!\n": 892, "Offic": 893, "Officer:\n": 894, "we": 895, "'t ": 896, "poor ": 897, "ity ": 898, " would ": 899, "eld ": 900, "whol": 901, "too ": 902, "ness ": 903, "vent": 904, "ance": 905, "ser": 906, "done ": 907, "country": 908, "t to ": 909, "report ": 910, "proud": 911, "spe": 912, "mali": 913, ": th": 914, "enc": 915, "be\n": 916, "part": 917, "is, ": 918, "cannot ": 919, "pl": 920, " si": 921, "Men": 922, "Menen": 923, "Meneni": 924, "hath": 925, "\nthe ": 926, "He's ": 927, "so": 928, " where ": 929, "bat": 930, "deed": 931, "s. ": 932, "ong ": 933, "too": 934, "tell you": 935, "char": 936, "at the ": 937, "cra": 938, "cur": 939, " than ": 940, "god": 941, "lam": 942, "enem": 943, " make ": 944, "ing s": 945, "\nA ": 946, "may ": 947, "heard ": 948, "Well": 949, ".\n\nMENENIUS:\nT": 950, "body": 951, "only ": 952, "dst ": 953, "and, ": 954, "e and ": 955, "well ": 956, "recei": 957, "form": 958, "friends": 959, "From": 960, "ee ": 961, "It ": 962, "\nThe": 963, "'st ": 964, "fore": 965, "first ": 966, ",\nM": 967, "es;": 968, "du": 969, "Up": 970, "lead": 971, "gar": 972, "in a": 973, "ere": 974, "!\nW": 975, "these ": 976, "made ": 977, "cap": 978, "city": 979, "il'd ": 980, "Volsces ": 981, "best ": 982, "hal": 983, "No, ": 984, "take ": 985, "ither": 986, ": but ": 987, "Shall ": 988, "if ": 989, "So, ": 990, "been": 991, "doub": 992, "from ": 993, "And ": 994, "ab": 995, "of my ": 996, "tter": 997, "ren": 998, "him s": 999, " than": 1000, "Aufidius ": 1001, "\nThan ": 1002, "A ": 1003, "tro": 1004, "o'": 1005, "ence": 1006, ",\nTo ": 1007, " thy ": 1008, "ry ": 1009, " thee": 1010, "some ": 1011, "hate ": 1012, "!\n\nCORIOLANUS:\n": 1013, "beg": 1014, ".\n\nAll:\n": 1015, "res": 1016, "fam": 1017, "ved": 1018, "ill ": 1019, "cor": 1020, "No ": 1021, "way": 1022, "patri": 1023, "patrician": 1024, "hum": 1025, "ise ": 1026, "pi": 1027, "become ": 1028, "Caius Marcius": 1029, "fir": 1030, "common": 1031, "Nay, ": 1032, "ak ": 1033, ", what ": 1034, "he did ": 1035, "tit": 1036, "ure": 1037, " ac": 1038, "faul": 1039, "with s": 1040, "sta": 1041, "to the Capitol": 1042, "come": 1043, "comes ": 1044, "all the ": 1045, "!\n\nM": 1046, "cl": 1047, "y you": 1048, "busin": 1049, "is not ": 1050, "ni": 1051, "which ": 1052, "e'll ": 1053, "brea": 1054, "Wh": 1055, "Why, ": 1056, "ers, ": 1057, "yoursel": 1058, "of you": 1059, "hea": 1060, "cour": 1061, "pear": 1062, "stat": 1063, "who ": 1064, "stor": 1065, "cha": 1066, ". I": 1067, "there's ": 1068, "sin": 1069, "pur": 1070, "more": 1071, " of": 1072, "deli": 1073, "like a ": 1074, ",\nS": 1075, "till ": 1076, "ing\n": 1077, "belly ": 1078, "look": 1079, "\nTo": 1080, "\nThey ": 1081, "y's ": 1082, "ste": 1083, "bri": 1084, "fell": 1085, "fellow": 1086, "hould ": 1087, "gent": 1088, "ence ": 1089, "grave ": 1090, "Not ": 1091, ",\nE": 1092, "and th": 1093, "Ay, ": 1094, "Yet ": 1095, "leave ": 1096, "thing": 1097, "blood ": 1098, "tle": 1099, "the matter": 1100, "He that ": 1101, "er, ": 1102, " wor": 1103, "great": 1104, "Upon": 1105, "down ": 1106, "ang ": 1107, "e! ": 1108, "every ": 1109, "min": 1110, "ange ": 1111}, "merges": [["e", " "], ["t", "h"], ["s", " "], ["t", " "], ["o", "u"], [",", " "], ["d", " "], ["e", "r"], ["i", "n"], ["a", "n"], [" ", "th"], ["e", "n"], [":", "\n"], ["o", "r"], ["a", "r"], ["y", " "], ["\n", "\n"], ["o", "n"], ["l", "l"], ["o", " "], ["y", "ou"], ["h", "a"], ["e", "s"], [".", "\n\n"], [",", "\n"], ["r", " "], ["h", "i"], ["U", "S"], [" th", "e "], ["US", ":\n"], ["o", "m"], ["n", "o"], ["t", "i"], ["I", "US:\n"], ["o", "f"], ["u", "s"], ["an", "d "], ["ll", " "], ["r", "e"], ["I", " "], ["t", "o "], ["in", "g"], [" ", "m"], ["w", "i"], ["h", "e "], [" ", "s"], ["a", "t"], ["v", "e "], ["a", "t "], ["th", "e "], ["h", "e"], ["l", "e"], ["f", "or"], ["o", "w"], ["s", "t "], ["l", "i"], [" ", "a"], ["b", "e"], ["i", "s "], ["c", "h"], ["i", "r"], ["d", "i"], [" ", "w"], [".", " "], ["o", "o"], ["s", "e"], ["E", "N"], ["i", "t"], ["er", " "], ["\n", "T"], ["th", "e"], ["e", "s "], [" ", "you"], ["s", "t"], ["hi", "m"], [";", " "], ["r", "i"], ["u", "s "], [" th", "e"], ["g", "h"], ["e", "d "], ["r", "a"], ["o", "l"], ["'", "s "], [":", " "], ["c", "i"], ["ou", "r "], ["e", ", "], ["no", "t "], ["d", "e"], ["m", "a"], ["l", "a"], ["h", "er"], ["ha", "t "], [".\n\n", "M"], ["wi", "th"], ["b", "u"], ["\n", "W"], ["ou", "l"], ["in", " "], ["a", "l"], ["s", ", "], ["p", "e"], ["you", " "], ["i", "t "], ["c", "om"], ["k", "e "], ["t", "o"], ["n", "d "], ["I", "A"], ["IA", ":\n"], ["ar", "e "], ["an", " "], ["?", "\n\n"], ["ha", "ve "], ["of", " "], ["\n", "A"], ["i", "r "], ["A", "R"], ["hi", "s "], ["th", "at "], ["th", "er"], ["b", "e "], ["a", "s "], ["f", "i"], ["e", "d"], ["b", "l"], ["ir", "st "], ["p", "r"], ["a", "m"], ["e", "l"], ["en", " "], ["M", "ar"], ["v", "er"], ["ing", " "], ["c", "on"], ["no", "w"], ["Mar", "ci"], ["oo", "d "], ["s", "u"], ["oul", "d "], ["s", "e "], ["a", " "], ["EN", "EN"], ["ENEN", "IUS:\n"], ["I", "N"], ["IN", "IUS:\n"], ["s", "h"], ["ti", "on"], ["F", "irst "], ["c", "e"], ["y", ", "], ["w", "or"], ["t", "r"], [",\n", "T"], ["you", "r "], ["or", " "], ["m", "y "], ["AR", "C"], ["a", "c"], ["e", "\n"], ["en", "t"], ["ARC", "IUS:\n"], [".\n\n", "V"], ["u", "r"], [", ", "w"], ["th", " "], ["C", "O"], ["g", "ood "], [",\n", "W"], ["u", "p"], ["O", "L"], ["he", "ar"], ["u", "n"], ["ou", "gh"], [",\n", "A"], ["p", "o"], ["n", "e"], ["t", "er"], [".\n\nM", "ENENIUS:\n"], ["s", "\n"], ["m", "e "], ["n", " "], ["!", "\n\n"], ["a", "d"], ["-", "-"], ["k", "now"], ["bu", "t "], ["ou", "r"], ["an", "d"], ["s", "ha"], ["R", "om"], ["i", "l"], ["z", "en"], ["c", "e "], ["e", "ll"], ["m", "o"], ["wi", "ll "], ["t", "a"], ["i", "ti"], ["f", " "], ["er", "e "], ["on", "e "], ["e", "t "], [", ", "and "], [" you", "r "], [" a", " "], ["'", "d "], ["on", " "], ["i", "s"], ["t", ", "], ["k", " "], ["ch", " "], [".\n\nM", "ARCIUS:\n"], ["C", "iti"], ["Citi", "zen"], ["Citizen", ":\n"], [".\n\n", "First "], ["ou", "n"], ["g", "o"], ["Marci", "us"], ["s", "en"], ["e", "m"], ["e", "ar"], ["the", "y "], ["for", " "], ["him", " "], ["a", "p"], ["her", "e "], ["'", "ll "], ["g", "a"], [".\n\n", "S"], ["s", "a"], ["es", "t "], ["d", "o "], ["!", " "], [" m", "y "], ["CO", "M"], ["COM", "INIUS:\n"], ["T", "US:\n"], ["o", "p"], ["w", "a"], ["w", "h"], ["se", "l"], ["her", "e"], ["l", "o"], ["c", "k"], ["OL", "U"], ["OLU", "M"], ["OLUM", "N"], ["OLUMN", "IA:\n"], ["u", "m"], ["t", "s "], ["B", "R"], ["BR", "U"], ["BRU", "TUS:\n"], [".", "\n"], ["l", "e "], [";", "\n"], ["the", "ir "], ["d", "o"], ["l", "y "], ["f", "a"], ["w", "ar"], ["ha", "t"], ["er", ":\n"], ["a", "k"], ["Y", "ou"], ["m", "or"], ["m", " "], ["'", " the "], ["bl", "e "], ["t", "t"], ["r", "om"], [" the", "ir "], ["w", "e "], ["f", "e"], ["es", "s "], ["g", "i"], ["with", " "], ["le", "a"], ["C", "om"], ["sha", "ll "], [",\nA", "nd "], ["th", "er "], ["to", " the "], ["u", "l"], ["d", "s "], ["ga", "in"], ["ow", " "], ["e", "ll "], ["\nT", "he "], ["c", "a"], [" you", " "], ["b", "o"], ["'", "t"], ["p", "ar"], ["; ", "and "], ["d", "\n"], [" th", "at "], ["us", "t "], ["v", "e"], ["di", "s"], ["?\n\n", "M"], ["d", "s"], ["C", "or"], ["I", "C"], ["IC", "INIUS:\n"], ["Marci", "us "], ["d", ", "], ["p", "er"], ["s", "i"], ["n", "o "], ["h", "on"], ["v", "es "], ["t", "\n"], ["\nT", "o "], ["ou", "t "], ["\nA", "nd "], ["g", "re"], ["an", "g"], [".\n\n", "COMINIUS:\n"], ["Cor", "i"], ["I", "R"], ["IR", "G"], ["IRG", "I"], ["IRGI", "L"], ["IRGIL", "IA:\n"], ["pr", "o"], ["i", "f"], ["es", ", "], [" th", "is "], ["t", "en"], ["w", "as "], ["d", "e "], ["T", "he "], ["on", "g"], ["s", "ir"], ["m", "e"], [".\n\n", "BRUTUS:\n"], ["c", "oun"], ["in", "k"], ["?", " "], ["f", "rom"], ["u", "t "], ["a", "s"], ["o", ", "], ["fi", "di"], [".\n\nS", "ICINIUS:\n"], ["ed", ", "], ["y", "\n"], ["ver", "y "], ["v", "i"], ["c", "an"], ["O", "f"], ["d", "er"], ["ma", "ke "], ["li", "ke "], ["om", "e "], ["es", "t"], ["f", "o"], ["T", "h"], ["H", "e "], ["es", "e "], ["u", "fidi"], [".\n\nV", "IRGILIA:\n"], [".\n\n", "L"], ["AR", "T"], ["ART", "IUS:\n"], ["a", "i"], ["pe", "op"], ["c", "t"], ["con", "d "], ["us", ", "], ["com", "e "], ["a", "ll"], ["p", "or"], ["di", "d "], ["o", "ther"], ["s ", "and "], ["he", "y "], ["f", "ri"], ["an", "s"], ["r", "u"], ["e", "t"], ["be", "ar"], ["d", "r"], ["I", "'ll "], ["'", "d"], ["at", "or"], ["ow", "n"], ["p", "la"], ["hi", "ch"], ["of", " the "], ["A", "ufidi"], [".\n\nL", "ARTIUS:\n"], ["on", "e"], ["e", "cond "], ["w", "ould "], ["e", "v"], ["gain", "st "], ["hi", "ch "], ["p", " "], ["m", "ust "], ["r", "e "], ["th", "y "], ["ha", "d "], ["s", ",\n"], ["it", "y"], ["g", "ra"], ["d", "a"], ["\n", "I"], [". ", "W"], ["y", " the "], ["'", "T"], ["q", "u"], ["g", "en"], [" m", "an"], ["b", "r"], ["gh", "t"], ["e", "e"], ["\nT", "h"], ["V", "OLUMNIA:\n"], ["A", "L"], ["AL", "E"], ["ALE", "R"], ["ALER", "IA:\n"], [".\n\n", "A"], [".\n\nFirst ", "Citizen:\n"], ["gh", "t "], ["th", "is "], ["com", "m"], ["l", "y"], ["he", "l"], ["e", "'s "], ["\nW", "i"], ["p", "ra"], [" the", "y "], ["d ", "to "], ["ar", "m"], ["in", "e "], ["mo", "st "], ["c", "ar"], ["H", "a"], ["F", "or"], ["an", "t"], ["u", "t"], ["be", "ll"], ["in", "i"], ["\nA", "s "], ["ol", "di"], ["er", "al"], ["I ", "am"], ["th", "ou"], ["in", " the "], ["h", "om"], ["'", "ti"], ["'ti", "s "], ["tr", "u"], ["es", "s"], ["I", " th"], ["ll", ":\n"], ["You", " "], ["p", "ri"], ["mor", "e "], ["g", "u"], [" w", "e "], ["a", "f"], ["g", "e"], ["gi", "ve "], ["p", "a"], ["pr", "ou"], ["fri", "en"], ["a", "ke "], [" a", "ll"], ["b", "er"], ["an", "t "], ["ha", "ll "], ["s", "c"], [",\nT", "hat "], ["p", "ow"], ["en", "ator"], ["o", "li"], [".\n\nV", "OLUMNIA:\n"], ["ou", "nd "], [".\n\nV", "ALERIA:\n"], ["CO", "R"], ["COR", "I"], ["CORI", "OL"], ["CORIOL", "A"], ["CORIOLA", "N"], ["pe", "ak"], ["a", "ll "], ["peop", "le"], ["ow", "n "], ["for", " the "], [" w", "hat "], ["o", "' the "], ["w", "ere "], ["at", "ter"], ["st", "r"], ["v", "es"], ["you", " m"], ["the", "m"], ["o", "se "], ["h", "en"], ["ou", "s "], ["fo", "ll"], ["I ", "will "], ["d", "y"], ["e", ",\n"], ["'", " "], ["gen", "eral"], ["in", "d"], ["h", "o"], ["g", "r"], ["no", "t"], ["s", "o "], [".\n\nFirst ", "S"], ["enator", ":\n"], ["O", ", "], ["hon", "our"], ["ma", "d"], ["U", "F"], ["UF", "I"], ["UFI", "D"], ["UFID", "IUS:\n"], ["Cori", "oli"], ["t", "w"], ["CORIOLAN", "US:\n"], ["First ", "Citizen:\n"], ["B", "e"], ["know", " "], ["C", "ai"], ["w", "er"], [":", " the "], ["v", "en"], [".\n\nS", "econd "], ["ha", "s "], ["w", "ell"], ["re", "por"], [";", " w"], ["I", "f "], ["g", "o "], ["u", "r "], ["v", "e\n"], ["re", "a"], ["you", "r"], [" the", "m"], [" a", "s "], [", ", "sir"], ["ing", " the "], ["se", "e "], ["oo", "k"], ["c", "r"], ["I", "n"], ["th", "en"], ["us", "e "], ["of", " your "], ["an", "k"], ["ar", "k"], ["Rom", "e "], ["e", "x"], ["B", "ut "], ["gre", "at "], ["no", "ble "], ["h", "or"], ["sh", "ould "], ["b", "le"], ["en", "d "], ["up", "on "], ["V", "ol"], ["ough", "t "], ["T", "it"], ["ough", " "], ["'T", "is "], ["s", "on"], ["m", "an"], ["mad", "am"], ["for", "e "], ["th", "an "], ["Cai", "us "], ["W", "e "], ["le", "t "], ["O", "n"], ["oo", "d"], [".", "\nW"], ["f", "l"], ["m", "i"], ["y", " th"], ["th", "at"], ["d", "er "], ["ou", "s"], ["p", "lea"], ["h", "o "], ["m", "en"], ["\nWi", "th "], ["O", "ur "], ["T", "hey "], ["Y", "our "], ["th", ", "], ["t", "ri"], ["e", "ver"], ["and", "\n"], ["you", " s"], ["p", "re"], ["li", "tt"], ["ti", "me "], ["tion", " "], ["ans", "wer"], ["in", "d "], ["\nT", "hat "], ["b", "y the "], [",", "--"], [", ", "my "], ["up", "on"], ["fi", "c"], [" m", "e"], ["e", "a"], ["s ", "of "], ["b", "a"], ["hat", "'s "], ["n", "or "], [",\nT", "h"], ["d", "es"], ["ar", "e"], ["li", "k"], ["de", "d"], ["ol", "d "], ["v", "a"], ["ne", "w"], ["Vol", "sc"], ["I am", " "], ["ar", "ti"], ["s", "hi"], [" m", "o"], ["en", "t "], ["sel", "f"], [",\nW", "e "], ["M", "y "], ["th", "an"], ["oldi", "er:\n"], ["w", "oun"], ["y ", "f"], [" m", "e "], ["L", "et "], ["p", "at"], ["bu", "n"], ["f", "f"], [" the", "m "], ["go", "ds "], ["h", "un"], ["C", "on"], ["coun", "tr"], ["c", "ould "], ["ha", "th "], ["c", "an "], ["W", "hat "], ["he ", "is "], ["c", "o"], ["c", "us"], ["C", "ap"], ["Cap", "it"], ["Capit", "ol"], ["Com", "e, "], [" a", "l"], ["or", "e "], ["b", "y "], ["er", "s"], ["wi", "ll"], ["lo", "ve "], [". ", "I "], ["y", "et "], ["m", "em"], ["v", "er "], ["?\n\nM", "ENENIUS:\n"], ["c", "am"], [" th", "at"], ["e", "y"], ["N", "o"], ["bl", "ood"], ["b", "ra"], ["no", "t\n"], ["I ", "do "], ["thou", " "], ["s", ":\n"], ["h", "er "], ["u", "ch"], ["s", "wor"], ["ou", "t"], ["es", "sen"], ["essen", "g"], ["esseng", "er:\n"], ["wi", "sh"], ["Com", "ini"], ["L", "arti"], ["the", "m "], ["s", "p"], ["sha", "ll"], [".\n\nA", "UFIDIUS:\n"], ["d", "ou"], ["de", "ed, "], ["!\n\n", "VOLUMNIA:\n"], ["H", "ow "], ["Cori", "ol"], ["Coriol", "an"], ["v", "ed "], ["A", "ll:\n"], ["d", "one"], ["ci", "an"], ["de", "ar"], ["g", "e "], ["re", "ad"], ["?\n\n", "First Citizen:\n"], ["N", "a"], ["sa", "y "], ["to ", "be "], ["he", "\n"], ["a", "\n"], ["m", "atter"], [", ", "I "], ["b", "us"], ["w", "hat "], ["t", "ell "], ["v", "en "], ["gainst ", "the "], ["Rom", "an"], ["m", "ent"], [",\nT", "he "], ["it", ", "], [":", " s"], ["es", "\n"], ["al", " "], ["you ", "have "], ["litt", "le "], [" all", " the "], ["mem", "ber"], ["with", " the "], ["fe", "c"], ["i", "th"], ["ce", "i"], [", ", "the "], ["s, ", "and "], ["in", "c"], ["ca", "use "], ["sa", "y"], ["s ", "the "], [", ", "that "], ["h", "ow"], ["e", "f"], ["r", "o"], ["n", "or"], ["of", "f"], [" th", "ese "], ["ee", "p"], ["pr", "es"], ["i", "' the "], ["f", "ac"], ["?\n\nM", "essenger:\n"], ["s ", "to "], ["Tit", "us "], ["Titus ", "Larti"], ["S", "enator:\n"], ["foll", "ow"], ["shi", "p"], ["for", "th"], ["tt", "er "], ["shall ", "be "], ["e, ", "and "], ["Aufidi", "us"], ["I ", "have "], ["Rom", "e"], ["be", "fore "], ["h", "ow "], ["t", "ur"], ["l", "or"], ["I", "n "], ["here ", "is "], ["hear", "t"], [".\n\nFirst S", "oldier:\n"], ["!", "\n"], ["Of", "fic"], ["Offic", "er:\n"], ["w", "e"], ["'", "t "], ["po", "or "], ["it", "y "], [" w", "ould "], ["el", "d "], ["wh", "ol"], ["to", "o "], ["n", "ess "], ["v", "ent"], ["an", "ce"], ["s", "er"], ["d", "one "], ["countr", "y"], ["t ", "to "], ["repor", "t "], ["prou", "d"], ["s", "pe"], ["ma", "li"], [":", " th"], ["en", "c"], ["be", "\n"], ["par", "t"], ["i", "s, "], ["can", "not "], ["p", "l"], [" s", "i"], ["M", "en"], ["Men", "en"], ["Menen", "i"], ["ha", "th"], ["\n", "the "], ["H", "e's "], ["s", "o"], [" w", "here "], ["b", "at"], ["de", "ed"], ["s", ". "], ["ong", " "], ["t", "oo"], ["tell ", "you"], ["ch", "ar"], ["at ", "the "], ["c", "ra"], ["c", "ur"], [" th", "an "], ["go", "d"], ["la", "m"], ["en", "em"], [" m", "ake "], ["ing", " s"], ["\nA", " "], ["ma", "y "], ["hear", "d "], ["W", "ell"], [".\n\nMENENIUS:\n", "T"], ["bo", "dy"], ["on", "ly "], ["d", "st "], ["and", ", "], ["e ", "and "], ["w", "ell "], ["re", "cei"], ["for", "m"], ["frien", "ds"], ["F", "rom"], ["e", "e "], ["I", "t "], ["\nT", "he"], ["'", "st "], ["for", "e"], ["f", "irst "], [",\n", "M"], ["es", ";"], ["d", "u"], ["U", "p"], ["le", "ad"], ["g", "ar"], ["in", " a"], ["er", "e"], ["!", "\nW"], ["th", "ese "], ["ma", "de "], ["c", "ap"], ["c", "ity"], ["il", "'d "], ["Volsc", "es "], ["b", "est "], ["ha", "l"], ["N", "o, "], ["ta", "ke "], ["i", "ther"], [": ", "but "], ["S", "hall "], ["i", "f "], ["S", "o, "], ["be", "en"], ["dou", "b"], ["from", " "], ["A", "nd "], ["a", "b"], ["of", " my "], ["t", "ter"], ["r", "en"], ["him", " s"], [" th", "an"], ["Aufidi", "us "], ["\nTh", "an "], ["A", " "], ["tr", "o"], ["o", "'"], ["en", "ce"], [",\nT", "o "], [" th", "y "], ["r", "y "], [" the", "e"], ["s", "ome "], ["hat", "e "], ["!\n\n", "CORIOLANUS:\n"], ["be", "g"], [".\n\nA", "ll:\n"], ["r", "es"], ["f", "am"], ["v", "ed"], ["i", "ll "], ["c", "or"], ["N", "o "], ["wa", "y"], ["pat", "ri"], ["patri", "cian"], ["h", "um"], ["i", "se "], ["p", "i"], ["be", "come "], ["Caius ", "Marcius"], ["f", "ir"], ["comm", "on"], ["Na", "y, "], ["a", "k "], [", w", "hat "], ["he ", "did "], ["ti", "t"], ["u", "re"], [" a", "c"], ["fa", "ul"], ["with", " s"], ["st", "a"], ["to the ", "Capitol"], ["com", "e"], ["com", "es "], ["all", " the "], ["!\n\n", "M"], ["c", "l"], ["y ", "you"], ["bus", "in"], ["is ", "not "], ["n", "i"], ["w", "hich "], ["e", "'ll "], ["b", "rea"], ["W", "h"], ["Wh", "y, "], ["er", "s, "], ["your", "sel"], ["of", " you"], ["he", "a"], ["c", "our"], ["pe", "ar"], ["st", "at"], ["wh", "o "], ["st", "or"], ["c", "ha"], [". ", "I"], ["ther", "e's "], ["s", "in"], ["p", "ur"], ["mor", "e"], [" ", "of"], ["de", "li"], ["like ", "a "], [",\n", "S"], ["ti", "ll "], ["ing", "\n"], ["bell", "y "], ["l", "ook"], ["\nT", "o"], ["\nT", "hey "], ["y", "'s "], ["st", "e"], ["b", "ri"], ["f", "ell"], ["fell", "ow"], ["h", "ould "], ["g", "ent"], ["en", "ce "], ["gra", "ve "], ["No", "t "], [",\n", "E"], ["and ", "th"], ["A", "y, "], ["Y", "et "], ["lea", "ve "], ["th", "ing"], ["bl", "ood "], ["t", "le"], ["the ", "matter"], ["He ", "that "], ["er", ", "], [" w", "or"], ["gre", "at"], ["Up", "on"], ["d", "own "], ["ang", " "], ["e", "! "], ["e", "very "], ["m", "in"], ["ang", "e "]]}